{
  "version": "1.0",
  "truncation": null,
  "padding": null,
  "added_tokens": [
    {
      "id": 0,
      "content": "[PAD]",
      "single_word": false,
      "lstrip": false,
      "rstrip": false,
      "normalized": false,
      "special": true
    },
    {
      "id": 1,
      "content": "[UNK]",
      "single_word": false,
      "lstrip": false,
      "rstrip": false,
      "normalized": false,
      "special": true
    },
    {
      "id": 2,
      "content": "[START]",
      "single_word": false,
      "lstrip": false,
      "rstrip": false,
      "normalized": false,
      "special": true
    },
    {
      "id": 3,
      "content": "[END]",
      "single_word": false,
      "lstrip": false,
      "rstrip": false,
      "normalized": false,
      "special": true
    },
    {
      "id": 4,
      "content": "[CLS]",
      "single_word": false,
      "lstrip": false,
      "rstrip": false,
      "normalized": false,
      "special": true
    },
    {
      "id": 5,
      "content": "[MASK]",
      "single_word": false,
      "lstrip": false,
      "rstrip": false,
      "normalized": false,
      "special": true
    },
    {
      "id": 6,
      "content": "[SEP]",
      "single_word": false,
      "lstrip": false,
      "rstrip": false,
      "normalized": false,
      "special": true
    }
  ],
  "normalizer": {
    "type": "BertNormalizer",
    "clean_text": false,
    "handle_chinese_chars": true,
    "strip_accents": null,
    "lowercase": false
  },
  "pre_tokenizer": {
    "type": "BertPreTokenizer"
  },
  "post_processor": null,
  "decoder": {
    "type": "WordPiece",
    "prefix": "##",
    "cleanup": true
  },
  "model": {
    "type": "WordPiece",
    "unk_token": "[UNK]",
    "continuing_subword_prefix": "##",
    "max_input_chars_per_word": 100,
    "vocab": {
      "[PAD]": 0,
      "[UNK]": 1,
      "[START]": 2,
      "[END]": 3,
      "[CLS]": 4,
      "[MASK]": 5,
      "[SEP]": 6,
      "0": 7,
      "1": 8,
      "2": 9,
      "3": 10,
      "4": 11,
      "5": 12,
      "6": 13,
      "7": 14,
      "8": 15,
      "9": 16,
      "A": 17,
      "D": 18,
      "E": 19,
      "N": 20,
      "R": 21,
      "S": 22,
      "T": 23,
      "[": 24,
      "]": 25,
      "a": 26,
      "b": 27,
      "c": 28,
      "d": 29,
      "e": 30,
      "f": 31,
      "g": 32,
      "h": 33,
      "i": 34,
      "j": 35,
      "k": 36,
      "l": 37,
      "m": 38,
      "n": 39,
      "o": 40,
      "p": 41,
      "q": 42,
      "r": 43,
      "s": 44,
      "t": 45,
      "u": 46,
      "v": 47,
      "w": 48,
      "x": 49,
      "y": 50,
      "z": 51,
      "ä": 52,
      "##h": 53,
      "##e": 54,
      "##m": 55,
      "##i": 56,
      "##s": 57,
      "##t": 58,
      "##r": 59,
      "##y": 60,
      "##v": 61,
      "##g": 62,
      "##a": 63,
      "##n": 64,
      "##l": 65,
      "##d": 66,
      "##p": 67,
      "##u": 68,
      "##x": 69,
      "##b": 70,
      "##k": 71,
      "##o": 72,
      "##f": 73,
      "##c": 74,
      "##w": 75,
      "##q": 76,
      "##3": 77,
      "##4": 78,
      "##z": 79,
      "##j": 80,
      "##9": 81,
      "##6": 82,
      "##7": 83,
      "##0": 84,
      "##2": 85,
      "##1": 86,
      "##5": 87,
      "##8": 88,
      "##T": 89,
      "##A": 90,
      "##R": 91,
      "##ä": 92,
      "##N": 93,
      "##D": 94,
      "##in": 95,
      "##ing": 96,
      "EN": 97,
      "ST": 98,
      "##AR": 99,
      "END": 100,
      "STAR": 101,
      "START": 102,
      "##an": 103,
      "##er": 104,
      "in": 105,
      "th": 106,
      "##it": 107,
      "##re": 108,
      "the": 109,
      "##le": 110,
      "an": 111,
      "##ar": 112,
      "##ro": 113,
      "on": 114,
      "##al": 115,
      "##at": 116,
      "##ir": 117,
      "##en": 118,
      "and": 119,
      "man": 120,
      "of": 121,
      "is": 122,
      "##ac": 123,
      "##om": 124,
      "##un": 125,
      "st": 126,
      "##ith": 127,
      "with": 128,
      "##ed": 129,
      "##or": 130,
      "##es": 131,
      "##on": 132,
      "##ld": 133,
      "##et": 134,
      "wh": 135,
      "bl": 136,
      "##ow": 137,
      "wom": 138,
      "##la": 139,
      "sh": 140,
      "##id": 141,
      "##ack": 142,
      "##op": 143,
      "##is": 144,
      "##oo": 145,
      "##ic": 146,
      "##and": 147,
      "##king": 148,
      "to": 149,
      "##ear": 150,
      "woman": 151,
      "tw": 152,
      "are": 153,
      "two": 154,
      "##ss": 155,
      "##irt": 156,
      "##all": 157,
      "##ut": 158,
      "at": 159,
      "pla": 160,
      "pe": 161,
      "##oun": 162,
      "##ople": 163,
      "people": 164,
      "bo": 165,
      "##ers": 166,
      "play": 167,
      "##ting": 168,
      "wear": 169,
      "ch": 170,
      "do": 171,
      "wearing": 172,
      "##ll": 173,
      "##ad": 174,
      "shirt": 175,
      "stand": 176,
      "##ite": 177,
      "##ch": 178,
      "##ge": 179,
      "sit": 180,
      "##ra": 181,
      "##ur": 182,
      "##ile": 183,
      "##oung": 184,
      "##ide": 185,
      "young": 186,
      "##ild": 187,
      "white": 188,
      "##ts": 189,
      "##ue": 190,
      "##rou": 191,
      "##gh": 192,
      "##st": 193,
      "black": 194,
      "##her": 195,
      "##irl": 196,
      "girl": 197,
      "ho": 198,
      "while": 199,
      "fro": 200,
      "dog": 201,
      "his": 202,
      "boy": 203,
      "##ot": 204,
      "blue": 205,
      "be": 206,
      "wal": 207,
      "out": 208,
      "##am": 209,
      "##um": 210,
      "co": 211,
      "red": 212,
      "wat": 213,
      "##ver": 214,
      "##as": 215,
      "##row": 216,
      "##und": 217,
      "sitting": 218,
      "child": 219,
      "men": 220,
      "##round": 221,
      "##ks": 222,
      "hold": 223,
      "standing": 224,
      "##own": 225,
      "stre": 226,
      "loo": 227,
      "playing": 228,
      "##us": 229,
      "##ard": 230,
      "##nt": 231,
      "street": 232,
      "##im": 233,
      "as": 234,
      "##il": 235,
      "##roup": 236,
      "group": 237,
      "down": 238,
      "ro": 239,
      "sm": 240,
      "her": 241,
      "##ri": 242,
      "##ree": 243,
      "front": 244,
      "##ke": 245,
      "##el": 246,
      "walking": 247,
      "holding": 248,
      "##ell": 249,
      "##ach": 250,
      "##ain": 251,
      "##air": 252,
      "##ion": 253,
      "gra": 254,
      "som": 255,
      "##ress": 256,
      "##ay": 257,
      "##ent": 258,
      "##ce": 259,
      "one": 260,
      "##ab": 261,
      "water": 262,
      "##bo": 263,
      "fi": 264,
      "car": 265,
      "back": 266,
      "dress": 267,
      "##ap": 268,
      "##side": 269,
      "wor": 270,
      "by": 271,
      "po": 272,
      "bu": 273,
      "three": 274,
      "cl": 275,
      "##ead": 276,
      "##reen": 277,
      "up": 278,
      "##ump": 279,
      "run": 280,
      "##ck": 281,
      "##tle": 282,
      "for": 283,
      "ne": 284,
      "##ark": 285,
      "##ct": 286,
      "##one": 287,
      "##ood": 288,
      "green": 289,
      "##uit": 290,
      "##ve": 291,
      "sw": 292,
      "women": 293,
      "##hing": 294,
      "sk": 295,
      "jump": 296,
      "##ght": 297,
      "##for": 298,
      "lit": 299,
      "##em": 300,
      "##ying": 301,
      "rid": 302,
      "bi": 303,
      "tr": 304,
      "looking": 305,
      "##form": 306,
      "se": 307,
      "##ind": 308,
      "##rown": 309,
      "hat": 310,
      "sn": 311,
      "lar": 312,
      "ball": 313,
      "ot": 314,
      "little": 315,
      "##ren": 316,
      "large": 317,
      "or": 318,
      "brown": 319,
      "##ball": 320,
      "side": 321,
      "yell": 322,
      "yellow": 323,
      "outside": 324,
      "##erson": 325,
      "over": 326,
      "person": 327,
      "##ore": 328,
      "un": 329,
      "children": 330,
      "some": 331,
      "con": 332,
      "fl": 333,
      "##to": 334,
      "sp": 335,
      "snow": 336,
      "##ul": 337,
      "le": 338,
      "##rough": 339,
      "through": 340,
      "##ong": 341,
      "##ure": 342,
      "##ian": 343,
      "hand": 344,
      "##ace": 345,
      "##lass": 346,
      "ma": 347,
      "from": 348,
      "##ning": 349,
      "other": 350,
      "##xt": 351,
      "their": 352,
      "##yc": 353,
      "##se": 354,
      "small": 355,
      "##acket": 356,
      "old": 357,
      "build": 358,
      "##ink": 359,
      "next": 360,
      "watch": 361,
      "##ground": 362,
      "building": 363,
      "##other": 364,
      "##able": 365,
      "jacket": 366,
      "into": 367,
      "##ly": 368,
      "##ate": 369,
      "##rowd": 370,
      "crowd": 371,
      "##oc": 372,
      "te": 373,
      "##est": 374,
      "##ple": 375,
      "##ag": 376,
      "##eld": 377,
      "##ving": 378,
      "##alk": 379,
      "##ig": 380,
      "near": 381,
      "##ick": 382,
      "dressed": 383,
      "##board": 384,
      "##ight": 385,
      "##ep": 386,
      "grass": 387,
      "bas": 388,
      "running": 389,
      "riding": 390,
      "another": 391,
      "ar": 392,
      "##ange": 393,
      "##ter": 394,
      "##age": 395,
      "##ph": 396,
      "sc": 397,
      "##ans": 398,
      "##oor": 399,
      "around": 400,
      "wa": 401,
      "cam": 402,
      "##walk": 403,
      "##ie": 404,
      "##ycle": 405,
      "off": 406,
      "##cer": 407,
      "ta": 408,
      "orange": 409,
      "beach": 410,
      "##sh": 411,
      "field": 412,
      "table": 413,
      "fo": 414,
      "##ist": 415,
      "##lasses": 416,
      "##pp": 417,
      "stands": 418,
      "al": 419,
      "background": 420,
      "per": 421,
      "lad": 422,
      "work": 423,
      "beh": 424,
      "behind": 425,
      "br": 426,
      "pic": 427,
      "pa": 428,
      "##ine": 429,
      "mo": 430,
      "##tain": 431,
      "pink": 432,
      "air": 433,
      "tra": 434,
      "sidewalk": 435,
      "go": 436,
      "jumping": 437,
      "##sing": 438,
      "##ture": 439,
      "##ity": 440,
      "sun": 441,
      "##ond": 442,
      "hi": 443,
      "##ross": 444,
      "##ff": 445,
      "perform": 446,
      "##str": 447,
      "top": 448,
      "shor": 449,
      "dr": 450,
      "sits": 451,
      "##ire": 452,
      "##ating": 453,
      "head": 454,
      "girls": 455,
      "bike": 456,
      "##iling": 457,
      "##der": 458,
      "##ool": 459,
      "that": 460,
      "sur": 461,
      "col": 462,
      "it": 463,
      "gu": 464,
      "la": 465,
      "##ud": 466,
      "wall": 467,
      "asian": 468,
      "camer": 469,
      "looks": 470,
      "##les": 471,
      "picture": 472,
      "##ub": 473,
      "##eat": 474,
      "li": 475,
      "hair": 476,
      "com": 477,
      "##way": 478,
      "park": 479,
      "##oot": 480,
      "tal": 481,
      "wood": 482,
      "##ere": 483,
      "soc": 484,
      "city": 485,
      "##ants": 486,
      "guit": 487,
      "guitar": 488,
      "je": 489,
      "camera": 490,
      "dogs": 491,
      "player": 492,
      "bus": 493,
      "read": 494,
      "##ountain": 495,
      "ben": 496,
      "him": 497,
      "##get": 498,
      "four": 499,
      "older": 500,
      "##ves": 501,
      "re": 502,
      "##are": 503,
      "bic": 504,
      "gray": 505,
      "working": 506,
      "dan": 507,
      "blond": 508,
      "##ame": 509,
      "has": 510,
      "guy": 511,
      "soccer": 512,
      "shorts": 513,
      "##ction": 514,
      "mid": 515,
      "##ip": 516,
      "par": 517,
      "##ething": 518,
      "something": 519,
      "##veral": 520,
      "several": 521,
      "cou": 522,
      "##rying": 523,
      "lady": 524,
      "uni": 525,
      "talking": 526,
      "ph": 527,
      "walk": 528,
      "boys": 529,
      "skate": 530,
      "##phone": 531,
      "pants": 532,
      "##ol": 533,
      "clot": 534,
      "hel": 535,
      "##door": 536,
      "plays": 537,
      "##ation": 538,
      "##end": 539,
      "##shirt": 540,
      "##ant": 541,
      "walks": 542,
      "ad": 543,
      "uniform": 544,
      "jeans": 545,
      "sho": 546,
      "ac": 547,
      "them": 548,
      "smiling": 549,
      "rock": 550,
      "hor": 551,
      "##dle": 552,
      "##ign": 553,
      "bench": 554,
      "road": 555,
      "sand": 556,
      "he": 557,
      "pre": 558,
      "##ket": 559,
      "bicycle": 560,
      "swim": 561,
      "along": 562,
      "##kes": 563,
      "kid": 564,
      "##atch": 565,
      "skateboard": 566,
      "en": 567,
      "carrying": 568,
      "food": 569,
      "pro": 570,
      "pur": 571,
      "##ather": 572,
      "holds": 573,
      "##led": 574,
      "pl": 575,
      "##ull": 576,
      "base": 577,
      "##rip": 578,
      "dark": 579,
      "suit": 580,
      "##gether": 581,
      "together": 582,
      "##te": 583,
      "bab": 584,
      "##imb": 585,
      "under": 586,
      "ha": 587,
      "game": 588,
      "abo": 589,
      "pain": 590,
      "baby": 591,
      "tan": 592,
      "outdoor": 593,
      "##gg": 594,
      "mot": 595,
      "get": 596,
      "mountain": 597,
      "climb": 598,
      "##qu": 599,
      "dirt": 600,
      "bag": 601,
      "face": 602,
      "ra": 603,
      "stage": 604,
      "there": 605,
      "che": 606,
      "mus": 607,
      "##ale": 608,
      "glasses": 609,
      "##uth": 610,
      "foot": 611,
      "chair": 612,
      "arm": 613,
      "sing": 614,
      "tow": 615,
      "strip": 616,
      "sign": 617,
      "boat": 618,
      "fem": 619,
      "long": 620,
      "##ook": 621,
      "hands": 622,
      "mic": 623,
      "##ath": 624,
      "att": 625,
      "##ful": 626,
      "doing": 627,
      "wait": 628,
      "couple": 629,
      "tree": 630,
      "team": 631,
      "##ling": 632,
      "coat": 633,
      "baseball": 634,
      "##ha": 635,
      "comp": 636,
      "jumps": 637,
      "##ies": 638,
      "am": 639,
      "##ence": 640,
      "each": 641,
      "micro": 642,
      "male": 643,
      "watching": 644,
      "who": 645,
      "sl": 646,
      "##stru": 647,
      "area": 648,
      "shop": 649,
      "basket": 650,
      "bar": 651,
      "taking": 652,
      "pool": 653,
      "sweat": 654,
      "##lder": 655,
      "##ice": 656,
      "motor": 657,
      "##cing": 658,
      "tshirt": 659,
      "##ses": 660,
      "band": 661,
      "##ican": 662,
      "##ft": 663,
      "de": 664,
      "##met": 665,
      "##ust": 666,
      "##ish": 667,
      "wind": 668,
      "mouth": 669,
      "ground": 670,
      "helmet": 671,
      "day": 672,
      "female": 673,
      "##ery": 674,
      "mar": 675,
      "look": 676,
      "constru": 677,
      "cap": 678,
      "music": 679,
      "middle": 680,
      "##ess": 681,
      "being": 682,
      "color": 683,
      "room": 684,
      "##glasses": 685,
      "spe": 686,
      "performing": 687,
      "##ents": 688,
      "##ping": 689,
      "ex": 690,
      "af": 691,
      "bot": 692,
      "striped": 693,
      "##og": 694,
      "purple": 695,
      "race": 696,
      "toy": 697,
      "phot": 698,
      "construction": 699,
      "##eel": 700,
      "##uring": 701,
      "swing": 702,
      "##ards": 703,
      "football": 704,
      "eating": 705,
      "across": 706,
      "##ired": 707,
      "op": 708,
      "surf": 709,
      "sunglasses": 710,
      "horse": 711,
      "many": 712,
      "ag": 713,
      "cross": 714,
      "set": 715,
      "##ner": 716,
      "##up": 717,
      "##hes": 718,
      "##ang": 719,
      "##ak": 720,
      "train": 721,
      "##ee": 722,
      "kids": 723,
      "##ous": 724,
      "store": 725,
      "gather": 726,
      "she": 727,
      "ob": 728,
      "##mb": 729,
      "##ment": 730,
      "ten": 731,
      "##itch": 732,
      "cover": 733,
      "##ry": 734,
      "runs": 735,
      "##ope": 736,
      "its": 737,
      "fla": 738,
      "##uck": 739,
      "##jo": 740,
      "window": 741,
      "fire": 742,
      "##ming": 743,
      "microphone": 744,
      "reading": 745,
      "##tic": 746,
      "motorc": 747,
      "using": 748,
      "all": 749,
      "tre": 750,
      "sa": 751,
      "prep": 752,
      "##nis": 753,
      "rest": 754,
      "workers": 755,
      "tennis": 756,
      "ca": 757,
      "players": 758,
      "dri": 759,
      "##aper": 760,
      "floor": 761,
      "##ance": 762,
      "##ored": 763,
      "adul": 764,
      "catch": 765,
      "sle": 766,
      "kn": 767,
      "##dy": 768,
      "enjo": 769,
      "##ort": 770,
      "app": 771,
      "fore": 772,
      "so": 773,
      "mark": 774,
      "bri": 775,
      "again": 776,
      "##aring": 777,
      "ri": 778,
      "lay": 779,
      "##ated": 780,
      "flow": 781,
      "fr": 782,
      "wooden": 783,
      "rides": 784,
      "##rel": 785,
      "basketball": 786,
      "bal": 787,
      "##ade": 788,
      "against": 789,
      "##ber": 790,
      "oce": 791,
      "##iv": 792,
      "ocean": 793,
      "##ty": 794,
      "##ugh": 795,
      "open": 796,
      "watches": 797,
      "##haired": 798,
      "this": 799,
      "can": 800,
      "clo": 801,
      "about": 802,
      "drin": 803,
      "pol": 804,
      "show": 805,
      "elder": 806,
      "##acing": 807,
      "track": 808,
      "##ley": 809,
      "surround": 810,
      "dancing": 811,
      "past": 812,
      "bright": 813,
      "during": 814,
      "##aur": 815,
      "new": 816,
      "high": 817,
      "##ive": 818,
      "clothing": 819,
      "waiting": 820,
      "they": 821,
      "busy": 822,
      "##fit": 823,
      "##man": 824,
      "climbing": 825,
      "smile": 826,
      "elderly": 827,
      "market": 828,
      "hill": 829,
      "motorcycle": 830,
      "having": 831,
      "outfit": 832,
      "ski": 833,
      "##mp": 834,
      "cle": 835,
      "flag": 836,
      "getting": 837,
      "##ial": 838,
      "restaur": 839,
      "pass": 840,
      "trees": 841,
      "##aning": 842,
      "##ted": 843,
      "##ron": 844,
      "light": 845,
      "dis": 846,
      "throw": 847,
      "##key": 848,
      "restaurant": 849,
      "cost": 850,
      "shirts": 851,
      "umb": 852,
      "instr": 853,
      "instrum": 854,
      "##rella": 855,
      "umbrella": 856,
      "des": 857,
      "##ast": 858,
      "swimming": 859,
      "costum": 860,
      "##vel": 861,
      "##ler": 862,
      "colorful": 863,
      "ve": 864,
      "##bb": 865,
      "making": 866,
      "cell": 867,
      "##sc": 868,
      "bow": 869,
      "str": 870,
      "bear": 871,
      "pie": 872,
      "singing": 873,
      "fe": 874,
      "fence": 875,
      "inside": 876,
      "covered": 877,
      "sleep": 878,
      "##cks": 879,
      "posing": 880,
      "##ect": 881,
      "hang": 882,
      "five": 883,
      "##dd": 884,
      "trying": 885,
      "art": 886,
      "line": 887,
      "cow": 888,
      "##utting": 889,
      "pr": 890,
      "big": 891,
      "##ey": 892,
      "brick": 893,
      "bes": 894,
      "##ily": 895,
      "lo": 896,
      "##sp": 897,
      "##by": 898,
      "##pack": 899,
      "##ors": 900,
      "bat": 901,
      "very": 902,
      "##vers": 903,
      "##less": 904,
      "##ooking": 905,
      "backpack": 906,
      "##ding": 907,
      "towards": 908,
      "sweater": 909,
      "book": 910,
      "di": 911,
      "hu": 912,
      "##ny": 913,
      "lake": 914,
      "ev": 915,
      "beside": 916,
      "path": 917,
      "ind": 918,
      "met": 919,
      "surrounded": 920,
      "##ycl": 921,
      "##hers": 922,
      "hats": 923,
      "ride": 924,
      "##mer": 925,
      "drum": 926,
      "##oon": 927,
      "##use": 928,
      "someone": 929,
      "stick": 930,
      "body": 931,
      "##icks": 932,
      "bik": 933,
      "ice": 934,
      "kitch": 935,
      "kitchen": 936,
      "##ill": 937,
      "clothes": 938,
      "roll": 939,
      "night": 940,
      "cart": 941,
      "truck": 942,
      "grassy": 943,
      "laugh": 944,
      "river": 945,
      "##lo": 946,
      "beard": 947,
      "arms": 948,
      "##ition": 949,
      "laying": 950,
      "vest": 951,
      "outdoors": 952,
      "board": 953,
      "##fe": 954,
      "tank": 955,
      "cor": 956,
      "step": 957,
      "cellphone": 958,
      "piece": 959,
      "cre": 960,
      "##room": 961,
      "compet": 962,
      "mach": 963,
      "##als": 964,
      "pus": 965,
      "todd": 966,
      "##ates": 967,
      "##amp": 968,
      "##raw": 969,
      "##ject": 970,
      "painting": 971,
      "##ries": 972,
      "stair": 973,
      "brid": 974,
      "tur": 975,
      "##ines": 976,
      "others": 977,
      "colored": 978,
      "ap": 979,
      "##iz": 980,
      "me": 981,
      "##unch": 982,
      "smo": 983,
      "##ird": 984,
      "##iew": 985,
      "enjoying": 986,
      "paper": 987,
      "sub": 988,
      "pull": 989,
      "##erican": 990,
      "trick": 991,
      "cour": 992,
      "box": 993,
      "sell": 994,
      "wheel": 995,
      "##ogra": 996,
      "boo": 997,
      "shopping": 998,
      "hard": 999,
      "metal": 1000,
      "ele": 1001,
      "above": 1002,
      "uniforms": 1003,
      "num": 1004,
      "##cor": 1005,
      "afr": 1006,
      "##we": 1007,
      "snowy": 1008,
      "door": 1009,
      "toddler": 1010,
      "full": 1011,
      "skirt": 1012,
      "bre": 1013,
      "drinking": 1014,
      "teen": 1015,
      "##av": 1016,
      "stone": 1017,
      "##ich": 1018,
      "photogra": 1019,
      "appear": 1020,
      "worker": 1021,
      "fis": 1022,
      "photo": 1023,
      "fam": 1024,
      "snowboard": 1025,
      "ready": 1026,
      "event": 1027,
      "no": 1028,
      "sleeping": 1029,
      "##emp": 1030,
      "like": 1031,
      "##ym": 1032,
      "shoes": 1033,
      "##riend": 1034,
      "house": 1035,
      "bridge": 1036,
      "african": 1037,
      "rain": 1038,
      "##act": 1039,
      "gi": 1040,
      "##ric": 1041,
      "guys": 1042,
      "##boy": 1043,
      "hanging": 1044,
      "coun": 1045,
      "hit": 1046,
      "stud": 1047,
      "##aking": 1048,
      "poin": 1049,
      "cur": 1050,
      "ey": 1051,
      "##ching": 1052,
      "after": 1053,
      "away": 1054,
      "onto": 1055,
      "phone": 1056,
      "##ound": 1057,
      "gathered": 1058,
      "leap": 1059,
      "american": 1060,
      "cowboy": 1061,
      "takes": 1062,
      "friend": 1063,
      "leg": 1064,
      "view": 1065,
      "##br": 1066,
      "rocks": 1067,
      "right": 1068,
      "##pla": 1069,
      "shou": 1070,
      "adults": 1071,
      "lap": 1072,
      "##ane": 1073,
      "going": 1074,
      "lot": 1075,
      "both": 1076,
      "conc": 1077,
      "family": 1078,
      "class": 1079,
      "pole": 1080,
      "##ement": 1081,
      "fountain": 1082,
      "jo": 1083,
      "crowded": 1084,
      "smiles": 1085,
      "##lic": 1086,
      "wave": 1087,
      "##ium": 1088,
      "steps": 1089,
      "gym": 1090,
      "##ones": 1091,
      "##ists": 1092,
      "dance": 1093,
      "##hair": 1094,
      "lea": 1095,
      "what": 1096,
      "leaning": 1097,
      "bet": 1098,
      "sky": 1099,
      "subway": 1100,
      "##ary": 1101,
      "flowers": 1102,
      "##ious": 1103,
      "comput": 1104,
      "rope": 1105,
      "pose": 1106,
      "attemp": 1107,
      "win": 1108,
      "##arf": 1109,
      "have": 1110,
      "##ix": 1111,
      "##ckey": 1112,
      "##ats": 1113,
      "hockey": 1114,
      "left": 1115,
      "hom": 1116,
      "vol": 1117,
      "dist": 1118,
      "res": 1119,
      "##ime": 1120,
      "##ned": 1121,
      "##ug": 1122,
      "##ets": 1123,
      "which": 1124,
      "fris": 1125,
      "##gging": 1126,
      "frisb": 1127,
      "preparing": 1128,
      "##ersey": 1129,
      "pub": 1130,
      "wr": 1131,
      "cr": 1132,
      "jersey": 1133,
      "##wn": 1134,
      "chairs": 1135,
      "##ween": 1136,
      "gr": 1137,
      "##ash": 1138,
      "##iting": 1139,
      "sunny": 1140,
      "between": 1141,
      "number": 1142,
      "opp": 1143,
      "##ase": 1144,
      "prepare": 1145,
      "displa": 1146,
      "costume": 1147,
      "frisbee": 1148,
      "balloon": 1149,
      "make": 1150,
      "gold": 1151,
      "machine": 1152,
      "equ": 1153,
      "laughing": 1154,
      "but": 1155,
      "gear": 1156,
      "shirtless": 1157,
      "bed": 1158,
      "##aut": 1159,
      "stop": 1160,
      "##owing": 1161,
      "graff": 1162,
      "public": 1163,
      "##art": 1164,
      "graffit": 1165,
      "match": 1166,
      "squ": 1167,
      "##eep": 1168,
      "##ier": 1169,
      "setting": 1170,
      "forest": 1171,
      "convers": 1172,
      "fishing": 1173,
      "fil": 1174,
      "##ved": 1175,
      "gent": 1176,
      "ref": 1177,
      "beaut": 1178,
      "##uct": 1179,
      "fish": 1180,
      "plaid": 1181,
      "instruments": 1182,
      "##hic": 1183,
      "##ening": 1184,
      "stat": 1185,
      "##ces": 1186,
      "corner": 1187,
      "plast": 1188,
      "##rill": 1189,
      "bags": 1190,
      "sweatshirt": 1191,
      "bottle": 1192,
      "##app": 1193,
      "drink": 1194,
      "short": 1195,
      "gentle": 1196,
      "cig": 1197,
      "glass": 1198,
      "adult": 1199,
      "volley": 1200,
      "vehic": 1201,
      "racing": 1202,
      "##yclist": 1203,
      "plastic": 1204,
      "ramp": 1205,
      "##icking": 1206,
      "beauti": 1207,
      "volleyball": 1208,
      "selling": 1209,
      "##ou": 1210,
      "couch": 1211,
      "tall": 1212,
      "##att": 1213,
      "ed": 1214,
      "##roll": 1215,
      "##aces": 1216,
      "mas": 1217,
      "##os": 1218,
      "##rete": 1219,
      "hood": 1220,
      "##ience": 1221,
      "trail": 1222,
      "appears": 1223,
      "concrete": 1224,
      "graffiti": 1225,
      "ent": 1226,
      "##ec": 1227,
      "woods": 1228,
      "police": 1229,
      "beautiful": 1230,
      "grill": 1231,
      "offic": 1232,
      "rail": 1233,
      "stairs": 1234,
      "equip": 1235,
      "midair": 1236,
      "aud": 1237,
      "##ety": 1238,
      "object": 1239,
      "home": 1240,
      "equipment": 1241,
      "glo": 1242,
      "pat": 1243,
      "roo": 1244,
      "cup": 1245,
      "##aged": 1246,
      "computer": 1247,
      "pad": 1248,
      "scen": 1249,
      "bird": 1250,
      "##ally": 1251,
      "scarf": 1252,
      "kis": 1253,
      "##az": 1254,
      "##arm": 1255,
      "does": 1256,
      "##ings": 1257,
      "rod": 1258,
      "seated": 1259,
      "throwing": 1260,
      "edge": 1261,
      "list": 1262,
      "##aret": 1263,
      "shovel": 1264,
      "skateboarder": 1265,
      "cooking": 1266,
      "vend": 1267,
      "##ems": 1268,
      "##ater": 1269,
      "spor": 1270,
      "distance": 1271,
      "cigaret": 1272,
      "##chool": 1273,
      "ban": 1274,
      "##xing": 1275,
      "display": 1276,
      "hot": 1277,
      "var": 1278,
      "where": 1279,
      "bel": 1280,
      "take": 1281,
      "ladies": 1282,
      "mountains": 1283,
      "apron": 1284,
      "putting": 1285,
      "works": 1286,
      "buck": 1287,
      "toward": 1288,
      "pushing": 1289,
      "station": 1290,
      "stroll": 1291,
      "boots": 1292,
      "kneel": 1293,
      "elect": 1294,
      "musician": 1295,
      "mul": 1296,
      "sil": 1297,
      "school": 1298,
      "##ins": 1299,
      "##ony": 1300,
      "ear": 1301,
      "##ined": 1302,
      "bikes": 1303,
      "gar": 1304,
      "##cl": 1305,
      "##ons": 1306,
      "nearby": 1307,
      "cheer": 1308,
      "fruit": 1309,
      "##top": 1310,
      "poses": 1311,
      "performs": 1312,
      "##pl": 1313,
      "rider": 1314,
      "slide": 1315,
      "newsp": 1316,
      "emp": 1317,
      "not": 1318,
      "shore": 1319,
      "##co": 1320,
      "buildings": 1321,
      "pictures": 1322,
      "just": 1323,
      "cont": 1324,
      "statue": 1325,
      "fall": 1326,
      "ser": 1327,
      "##bor": 1328,
      "winter": 1329,
      "##head": 1330,
      "playground": 1331,
      "parade": 1332,
      "instrument": 1333,
      "smoking": 1334,
      "pulling": 1335,
      "tatt": 1336,
      "vi": 1337,
      "##ail": 1338,
      "##ugg": 1339,
      "chas": 1340,
      "tattoo": 1341,
      "##ib": 1342,
      "photograph": 1343,
      "cigarette": 1344,
      "##ven": 1345,
      "cars": 1346,
      "flower": 1347,
      "##ows": 1348,
      "##ches": 1349,
      "##iding": 1350,
      "##ghts": 1351,
      "crossing": 1352,
      "audience": 1353,
      "##uff": 1354,
      "pres": 1355,
      "friends": 1356,
      "##sel": 1357,
      "saf": 1358,
      "##iff": 1359,
      "concer": 1360,
      "reach": 1361,
      "anim": 1362,
      "bubb": 1363,
      "##phones": 1364,
      "eyes": 1365,
      "cutting": 1366,
      "horses": 1367,
      "cra": 1368,
      "yard": 1369,
      "##actic": 1370,
      "net": 1371,
      "##upp": 1372,
      "##ical": 1373,
      "lawn": 1374,
      "painted": 1375,
      "driving": 1376,
      "##cking": 1377,
      "##ining": 1378,
      "blan": 1379,
      "vehicle": 1380,
      "fun": 1381,
      "practic": 1382,
      "lying": 1383,
      "##out": 1384,
      "##ock": 1385,
      "##ini": 1386,
      "goal": 1387,
      "rais": 1388,
      "few": 1389,
      "six": 1390,
      "##ban": 1391,
      "safety": 1392,
      "was": 1393,
      "struct": 1394,
      "filled": 1395,
      "structure": 1396,
      "##ork": 1397,
      "spla": 1398,
      "rocky": 1399,
      "veget": 1400,
      "concert": 1401,
      "form": 1402,
      "happ": 1403,
      "##pped": 1404,
      "land": 1405,
      "##ps": 1406,
      "roof": 1407,
      "mem": 1408,
      "mother": 1409,
      "##ators": 1410,
      "blondhair": 1411,
      "drums": 1412,
      "inf": 1413,
      "close": 1414,
      "cream": 1415,
      "gentleman": 1416,
      "##ests": 1417,
      "enjoy": 1418,
      "rode": 1419,
      "##lee": 1420,
      "makes": 1421,
      "break": 1422,
      "giving": 1423,
      "blanket": 1424,
      "mart": 1425,
      "newspaper": 1426,
      "spect": 1427,
      "cut": 1428,
      "pot": 1429,
      "railing": 1430,
      "dock": 1431,
      "party": 1432,
      "bare": 1433,
      "sha": 1434,
      "beer": 1435,
      "cla": 1436,
      "##avy": 1437,
      "##let": 1438,
      "paint": 1439,
      "##look": 1440,
      "##iness": 1441,
      "##pping": 1442,
      "cleaning": 1443,
      "ce": 1444,
      "mud": 1445,
      "qu": 1446,
      "gloves": 1447,
      "sports": 1448,
      "rodeo": 1449,
      "bull": 1450,
      "neck": 1451,
      "lab": 1452,
      "##irc": 1453,
      "carries": 1454,
      "bunch": 1455,
      "we": 1456,
      "##looking": 1457,
      "##pe": 1458,
      "shoulder": 1459,
      "kick": 1460,
      "##ides": 1461,
      "gogg": 1462,
      "martial": 1463,
      "wre": 1464,
      "##set": 1465,
      "##ival": 1466,
      "drinks": 1467,
      "leaves": 1468,
      "draw": 1469,
      "pile": 1470,
      "wet": 1471,
      "swims": 1472,
      "##ught": 1473,
      "middleaged": 1474,
      "showing": 1475,
      "business": 1476,
      "roller": 1477,
      "court": 1478,
      "snowboarder": 1479,
      "##ser": 1480,
      "parked": 1481,
      "bathing": 1482,
      "goggles": 1483,
      "##ti": 1484,
      "reads": 1485,
      "rela": 1486,
      "say": 1487,
      "##ched": 1488,
      "post": 1489,
      "dire": 1490,
      "check": 1491,
      "flags": 1492,
      "vegetable": 1493,
      "ped": 1494,
      "##ghting": 1495,
      "bowling": 1496,
      "mil": 1497,
      "jackets": 1498,
      "biker": 1499,
      "mask": 1500,
      "onlook": 1501,
      "prepares": 1502,
      "##ivid": 1503,
      "bowl": 1504,
      "facing": 1505,
      "ladder": 1506,
      "costumes": 1507,
      "spectators": 1508,
      "dig": 1509,
      "har": 1510,
      "##sed": 1511,
      "swinging": 1512,
      "students": 1513,
      "rac": 1514,
      "##ike": 1515,
      "##ooth": 1516,
      "circ": 1517,
      "mon": 1518,
      "surfer": 1519,
      "arts": 1520,
      "teams": 1521,
      "feet": 1522,
      "##ape": 1523,
      "ath": 1524,
      "flip": 1525,
      "alley": 1526,
      "indian": 1527,
      "kay": 1528,
      "##ige": 1529,
      "suits": 1530,
      "decor": 1531,
      "counter": 1532,
      "scene": 1533,
      "various": 1534,
      "##try": 1535,
      "flo": 1536,
      "waves": 1537,
      "rep": 1538,
      "parking": 1539,
      "diff": 1540,
      "pointing": 1541,
      "electric": 1542,
      "talks": 1543,
      "among": 1544,
      "viol": 1545,
      "wrest": 1546,
      "time": 1547,
      "inter": 1548,
      "##ush": 1549,
      "dresses": 1550,
      "bucket": 1551,
      "onlookers": 1552,
      "tent": 1553,
      "vests": 1554,
      "coll": 1555,
      "vendor": 1556,
      "practicing": 1557,
      "int": 1558,
      "desk": 1559,
      "listening": 1560,
      "younger": 1561,
      "flying": 1562,
      "gymn": 1563,
      "##ette": 1564,
      "differ": 1565,
      "pitch": 1566,
      "sled": 1567,
      "put": 1568,
      "ty": 1569,
      "##na": 1570,
      "##ds": 1571,
      "##ise": 1572,
      "##olored": 1573,
      "speaking": 1574,
      "##ging": 1575,
      "##ens": 1576,
      "cliff": 1577,
      "different": 1578,
      "##ual": 1579,
      "##fore": 1580,
      "coff": 1581,
      "trun": 1582,
      "skateboarding": 1583,
      "##men": 1584,
      "staring": 1585,
      "surfboard": 1586,
      "individ": 1587,
      "before": 1588,
      "rob": 1589,
      "coffee": 1590,
      "loc": 1591,
      "tub": 1592,
      "star": 1593,
      "##ops": 1594,
      "##ural": 1595,
      "life": 1596,
      "sort": 1597,
      "leans": 1598,
      "cement": 1599,
      "fur": 1600,
      "talk": 1601,
      "fing": 1602,
      "lead": 1603,
      "##th": 1604,
      "##nic": 1605,
      "##ator": 1606,
      "tour": 1607,
      "empty": 1608,
      "##itary": 1609,
      "shad": 1610,
      "##ray": 1611,
      "skier": 1612,
      "laptop": 1613,
      "same": 1614,
      "purse": 1615,
      "leaps": 1616,
      "wed": 1617,
      "clown": 1618,
      "attire": 1619,
      "writing": 1620,
      "kicking": 1621,
      "##io": 1622,
      "kneeling": 1623,
      "silver": 1624,
      "legs": 1625,
      "gro": 1626,
      "##du": 1627,
      "leather": 1628,
      "tie": 1629,
      "obser": 1630,
      "foreground": 1631,
      "violin": 1632,
      "din": 1633,
      "##ulp": 1634,
      "##case": 1635,
      "##ouse": 1636,
      "exam": 1637,
      "bearded": 1638,
      "lined": 1639,
      "##bers": 1640,
      "cal": 1641,
      "overlooking": 1642,
      "darkhaired": 1643,
      "bikini": 1644,
      "wedding": 1645,
      "wears": 1646,
      "##ading": 1647,
      "sculp": 1648,
      "##eath": 1649,
      "cas": 1650,
      "shot": 1651,
      "conversation": 1652,
      "items": 1653,
      "##yclists": 1654,
      "turn": 1655,
      "bur": 1656,
      "##lf": 1657,
      "bicycles": 1658,
      "prot": 1659,
      "bald": 1660,
      "dra": 1661,
      "##wing": 1662,
      "attempting": 1663,
      "military": 1664,
      "way": 1665,
      "climbs": 1666,
      "signs": 1667,
      "##ticip": 1668,
      "sold": 1669,
      "competition": 1670,
      "##ied": 1671,
      "indoor": 1672,
      "##red": 1673,
      "##lage": 1674,
      "streets": 1675,
      "screen": 1676,
      "rug": 1677,
      "tou": 1678,
      "golf": 1679,
      "artist": 1680,
      "good": 1681,
      "##ctive": 1682,
      "musical": 1683,
      "stroller": 1684,
      "site": 1685,
      "teenag": 1686,
      "##ower": 1687,
      "chr": 1688,
      "##ession": 1689,
      "gre": 1690,
      "med": 1691,
      "meat": 1692,
      "##int": 1693,
      "grocer": 1694,
      "##els": 1695,
      "sweep": 1696,
      "contain": 1697,
      "place": 1698,
      "garb": 1699,
      "##vert": 1700,
      "hik": 1701,
      "gets": 1702,
      "animal": 1703,
      "gard": 1704,
      "##lebr": 1705,
      "chines": 1706,
      "plat": 1707,
      "celebr": 1708,
      "christ": 1709,
      "##ely": 1710,
      "alone": 1711,
      "meal": 1712,
      "chinese": 1713,
      "bath": 1714,
      "log": 1715,
      "##allow": 1716,
      "##ners": 1717,
      "sings": 1718,
      "ur": 1719,
      "gathering": 1720,
      "chasing": 1721,
      "led": 1722,
      "fighting": 1723,
      "##ending": 1724,
      "vegetables": 1725,
      "##ki": 1726,
      "##ward": 1727,
      "##arate": 1728,
      "country": 1729,
      "cloud": 1730,
      "crou": 1731,
      "gun": 1732,
      "##aks": 1733,
      "eng": 1734,
      "balan": 1735,
      "enter": 1736,
      "bubbles": 1737,
      "tries": 1738,
      "uses": 1739,
      "##aff": 1740,
      "##ne": 1741,
      "##ooter": 1742,
      "classroom": 1743,
      "blowing": 1744,
      "tables": 1745,
      "sandy": 1746,
      "says": 1747,
      "cand": 1748,
      "tro": 1749,
      "##full": 1750,
      "##lding": 1751,
      "block": 1752,
      "advert": 1753,
      "prote": 1754,
      "wra": 1755,
      "##ken": 1756,
      "##acks": 1757,
      "tracks": 1758,
      "tool": 1759,
      "##ger": 1760,
      "incl": 1761,
      "##len": 1762,
      "##estri": 1763,
      "sunset": 1764,
      "produ": 1765,
      "passing": 1766,
      "musicians": 1767,
      "##mas": 1768,
      "males": 1769,
      "particip": 1770,
      "##athon": 1771,
      "##ized": 1772,
      "platform": 1773,
      "##fully": 1774,
      "faces": 1775,
      "tire": 1776,
      "vis": 1777,
      "##ert": 1778,
      "scooter": 1779,
      "coming": 1780,
      "walkway": 1781,
      "exp": 1782,
      "outfits": 1783,
      "advertis": 1784,
      "cat": 1785,
      "##oe": 1786,
      "##foot": 1787,
      "bride": 1788,
      "cafe": 1789,
      "athle": 1790,
      "trunks": 1791,
      "ham": 1792,
      "row": 1793,
      "##nel": 1794,
      "marathon": 1795,
      "clear": 1796,
      "huge": 1797,
      "refle": 1798,
      "##ram": 1799,
      "brun": 1800,
      "##ffic": 1801,
      "collar": 1802,
      "##enc": 1803,
      "straw": 1804,
      "##ached": 1805,
      "part": 1806,
      "balloons": 1807,
      "##uss": 1808,
      "stream": 1809,
      "lights": 1810,
      "wooded": 1811,
      "gymnast": 1812,
      "christmas": 1813,
      "mir": 1814,
      "##osing": 1815,
      "traffic": 1816,
      "chef": 1817,
      "cake": 1818,
      "barefoot": 1819,
      "fest": 1820,
      "im": 1821,
      "chur": 1822,
      "trad": 1823,
      "waving": 1824,
      "microsc": 1825,
      "surfing": 1826,
      "diving": 1827,
      "competing": 1828,
      "resting": 1829,
      "cust": 1830,
      "pupp": 1831,
      "##shing": 1832,
      "##bs": 1833,
      "##read": 1834,
      "##lders": 1835,
      "mirro": 1836,
      "pier": 1837,
      "mag": 1838,
      "swings": 1839,
      "present": 1840,
      "foll": 1841,
      "hiking": 1842,
      "helping": 1843,
      "helmets": 1844,
      "photograp": 1845,
      "urban": 1846,
      "##slee": 1847,
      "##kin": 1848,
      "trash": 1849,
      "sandals": 1850,
      "prof": 1851,
      "##itional": 1852,
      "teenage": 1853,
      "officer": 1854,
      "brunette": 1855,
      "stret": 1856,
      "shows": 1857,
      "kissing": 1858,
      "church": 1859,
      "father": 1860,
      "ring": 1861,
      "son": 1862,
      "##vice": 1863,
      "##ales": 1864,
      "longslee": 1865,
      "disc": 1866,
      "garden": 1867,
      "ledge": 1868,
      "bra": 1869,
      "booth": 1870,
      "##ton": 1871,
      "##port": 1872,
      "leaping": 1873,
      "##lesc": 1874,
      "project": 1875,
      "plate": 1876,
      "doorway": 1877,
      "multic": 1878,
      "cheerle": 1879,
      "nat": 1880,
      "pill": 1881,
      "colle": 1882,
      "##actor": 1883,
      "made": 1884,
      "tack": 1885,
      "##ia": 1886,
      "chain": 1887,
      "headphones": 1888,
      "opposing": 1889,
      "sculpture": 1890,
      "pack": 1891,
      "##ness": 1892,
      "sec": 1893,
      "direction": 1894,
      "pedestri": 1895,
      "mirror": 1896,
      "vide": 1897,
      "shallow": 1898,
      "##ental": 1899,
      "fight": 1900,
      "seen": 1901,
      "##uddle": 1902,
      "course": 1903,
      "traditional": 1904,
      "cent": 1905,
      "##ung": 1906,
      "brightly": 1907,
      "padd": 1908,
      "custom": 1909,
      "da": 1910,
      "town": 1911,
      "##ular": 1912,
      "##cord": 1913,
      "##tom": 1914,
      "coats": 1915,
      "skiing": 1916,
      "hal": 1917,
      "hur": 1918,
      "kha": 1919,
      "cloth": 1920,
      "toys": 1921,
      "type": 1922,
      "karate": 1923,
      "##line": 1924,
      "stad": 1925,
      "waters": 1926,
      "seat": 1927,
      "balls": 1928,
      "held": 1929,
      "skating": 1930,
      "sea": 1931,
      "laund": 1932,
      "waits": 1933,
      "square": 1934,
      "happy": 1935,
      "stadium": 1936,
      "leash": 1937,
      "sliding": 1938,
      "shoulders": 1939,
      "repair": 1940,
      "pul": 1941,
      "##if": 1942,
      "##band": 1943,
      "##za": 1944,
      "##road": 1945,
      "##ese": 1946,
      "##eth": 1947,
      "##ics": 1948,
      "spr": 1949,
      "##ages": 1950,
      "bottom": 1951,
      "##hone": 1952,
      "##orch": 1953,
      "dirty": 1954,
      "gian": 1955,
      "pond": 1956,
      "ret": 1957,
      "##ipe": 1958,
      "oper": 1959,
      "eat": 1960,
      "fair": 1961,
      "well": 1962,
      "stra": 1963,
      "hoop": 1964,
      "office": 1965,
      "umbrellas": 1966,
      "members": 1967,
      "microscope": 1968,
      "hall": 1969,
      "##ered": 1970,
      "sticks": 1971,
      "spray": 1972,
      "barb": 1973,
      "hugging": 1974,
      "kayak": 1975,
      "includ": 1976,
      "ass": 1977,
      "##ient": 1978,
      "stun": 1979,
      "##alls": 1980,
      "runners": 1981,
      "moving": 1982,
      "ori": 1983,
      "##cers": 1984,
      "hole": 1985,
      "see": 1986,
      "heavy": 1987,
      "canoe": 1988,
      "##chair": 1989,
      "fixing": 1990,
      "performer": 1991,
      "throws": 1992,
      "tun": 1993,
      "##ped": 1994,
      "third": 1995,
      "##ocks": 1996,
      "##scape": 1997,
      "books": 1998,
      "below": 1999,
      "splash": 2000,
      "multicolored": 2001,
      "##work": 2002,
      "beige": 2003,
      "##apers": 2004,
      "runner": 2005,
      "##aster": 2006,
      "grocery": 2007,
      "##elf": 2008,
      "attached": 2009,
      "deck": 2010,
      "exc": 2011,
      "digging": 2012,
      "giant": 2013,
      "##fts": 2014,
      "##leep": 2015,
      "trans": 2016,
      "dry": 2017,
      "desert": 2018,
      "kind": 2019,
      "asleep": 2020,
      "performance": 2021,
      "nose": 2022,
      "cyclist": 2023,
      "pair": 2024,
      "##ten": 2025,
      "##cting": 2026,
      "these": 2027,
      "hula": 2028,
      "yo": 2029,
      "##allen": 2030,
      "waterf": 2031,
      "drawing": 2032,
      "cook": 2033,
      "mat": 2034,
      "pan": 2035,
      "wide": 2036,
      "##lers": 2037,
      "stare": 2038,
      "telesc": 2039,
      "dancers": 2040,
      "deep": 2041,
      "washing": 2042,
      "dinner": 2043,
      "don": 2044,
      "ter": 2045,
      "##wards": 2046,
      "##zz": 2047,
      "##ering": 2048,
      "##usp": 2049,
      "tricks": 2050,
      "heads": 2051,
      "makeup": 2052,
      "##affo": 2053,
      "cheerlead": 2054,
      "act": 2055,
      "crying": 2056,
      "how": 2057,
      "susp": 2058,
      "##so": 2059,
      "##fl": 2060,
      "##stac": 2061,
      "upside": 2062,
      "teeth": 2063,
      "himsel": 2064,
      "string": 2065,
      "photographer": 2066,
      "himself": 2067,
      "emb": 2068,
      "must": 2069,
      "##yard": 2070,
      "stuff": 2071,
      "##ute": 2072,
      "singer": 2073,
      "obstac": 2074,
      "swimsuit": 2075,
      "circle": 2076,
      "dish": 2077,
      "key": 2078,
      "##tail": 2079,
      "##oline": 2080,
      "catching": 2081,
      "closed": 2082,
      "reaching": 2083,
      "protest": 2084,
      "pulled": 2085,
      "##erman": 2086,
      "##arrow": 2087,
      "##emon": 2088,
      "scaffo": 2089,
      "##eather": 2090,
      "accord": 2091,
      "underw": 2092,
      "matching": 2093,
      "##ughter": 2094,
      "festival": 2095,
      "accordion": 2096,
      "ste": 2097,
      "##stand": 2098,
      "redhair": 2099,
      "camou": 2100,
      "travel": 2101,
      "golden": 2102,
      "relaxing": 2103,
      "individu": 2104,
      "camouf": 2105,
      "fin": 2106,
      "fram": 2107,
      "van": 2108,
      "##ures": 2109,
      "tramp": 2110,
      "lays": 2111,
      "center": 2112,
      "individuals": 2113,
      "mom": 2114,
      "pick": 2115,
      "##mo": 2116,
      "sty": 2117,
      "hoodie": 2118,
      "falling": 2119,
      "profession": 2120,
      "trampoline": 2121,
      "jugg": 2122,
      "wine": 2123,
      "##oes": 2124,
      "##fight": 2125,
      "##arks": 2126,
      "pret": 2127,
      "end": 2128,
      "attempts": 2129,
      "officers": 2130,
      "video": 2131,
      "half": 2132,
      "dun": 2133,
      "tong": 2134,
      "##back": 2135,
      "sax": 2136,
      "balc": 2137,
      "jogging": 2138,
      "khaki": 2139,
      "tile": 2140,
      "##neath": 2141,
      "##atting": 2142,
      "picnic": 2143,
      "most": 2144,
      "move": 2145,
      "underneath": 2146,
      "boats": 2147,
      "windows": 2148,
      "catches": 2149,
      "sweeping": 2150,
      "oriental": 2151,
      "##cas": 2152,
      "seven": 2153,
      "device": 2154,
      "produce": 2155,
      "discuss": 2156,
      "telescope": 2157,
      "lone": 2158,
      "sum": 2159,
      "##bla": 2160,
      "atop": 2161,
      "rollerbla": 2162,
      "camouflage": 2163,
      "racket": 2164,
      "carri": 2165,
      "firefight": 2166,
      "eats": 2167,
      "wets": 2168,
      "##aching": 2169,
      "comple": 2170,
      "blondhaired": 2171,
      "sail": 2172,
      "rugby": 2173,
      "pedestrians": 2174,
      "##com": 2175,
      "here": 2176,
      "also": 2177,
      "appro": 2178,
      "eye": 2179,
      "daughter": 2180,
      "card": 2181,
      "weld": 2182,
      "##ble": 2183,
      "shoo": 2184,
      "females": 2185,
      "decorated": 2186,
      "finger": 2187,
      "suspend": 2188,
      "obstacle": 2189,
      "wetsuit": 2190,
      "rub": 2191,
      "round": 2192,
      "##ake": 2193,
      "##que": 2194,
      "jean": 2195,
      "lots": 2196,
      "infl": 2197,
      "den": 2198,
      "ext": 2199,
      "gl": 2200,
      "low": 2201,
      "##ass": 2202,
      "##ront": 2203,
      "airpl": 2204,
      "##haw": 2205,
      "crosswalk": 2206,
      "slee": 2207,
      "##ects": 2208,
      "splashing": 2209,
      "##light": 2210,
      "##fting": 2211,
      "insp": 2212,
      "##alm": 2213,
      "sto": 2214,
      "pos": 2215,
      "poss": 2216,
      "bran": 2217,
      "bicyclist": 2218,
      "##ips": 2219,
      "curly": 2220,
      "wrapped": 2221,
      "##kinned": 2222,
      "bro": 2223,
      "##its": 2224,
      "##ital": 2225,
      "fig": 2226,
      "backyard": 2227,
      "picking": 2228,
      "speed": 2229,
      "clean": 2230,
      "meet": 2231,
      "curb": 2232,
      "fallen": 2233,
      "mu": 2234,
      "wire": 2235,
      "##igh": 2236,
      "##gers": 2237,
      "##ids": 2238,
      "##ophone": 2239,
      "skis": 2240,
      "multi": 2241,
      "barbec": 2242,
      "keyboard": 2243,
      "balcony": 2244,
      "carn": 2245,
      "tele": 2246,
      "taken": 2247,
      "##aked": 2248,
      "##ible": 2249,
      "infant": 2250,
      "entertain": 2251,
      "including": 2252,
      "gest": 2253,
      "groom": 2254,
      "whil": 2255,
      "cold": 2256,
      "guard": 2257,
      "plants": 2258,
      "checking": 2259,
      "points": 2260,
      "nice": 2261,
      "local": 2262,
      "whilst": 2263,
      "fan": 2264,
      "warm": 2265,
      "##ns": 2266,
      "bever": 2267,
      "conf": 2268,
      "goes": 2269,
      "lift": 2270,
      "guitars": 2271,
      "marching": 2272,
      "sleeps": 2273,
      "laundry": 2274,
      "port": 2275,
      "##esting": 2276,
      "##ctor": 2277,
      "dances": 2278,
      "refere": 2279,
      "airplane": 2280,
      "aw": 2281,
      "fre": 2282,
      "jumpsuit": 2283,
      "slides": 2284,
      "passes": 2285,
      "pushes": 2286,
      "railroad": 2287,
      "stunt": 2288,
      "denim": 2289,
      "carnival": 2290,
      "fans": 2291,
      "us": 2292,
      "##ees": 2293,
      "##erc": 2294,
      "##opes": 2295,
      "chest": 2296,
      "living": 2297,
      "cane": 2298,
      "motorcycles": 2299,
      "hitting": 2300,
      "muddy": 2301,
      "professional": 2302,
      "bm": 2303,
      "##go": 2304,
      "##aw": 2305,
      "##ersk": 2306,
      "carp": 2307,
      "pouring": 2308,
      "flor": 2309,
      "colors": 2310,
      "cast": 2311,
      "gives": 2312,
      "balancing": 2313,
      "multiple": 2314,
      "kicks": 2315,
      "su": 2316,
      "tag": 2317,
      "##ina": 2318,
      "##icycle": 2319,
      "speaks": 2320,
      "knit": 2321,
      "soft": 2322,
      "opening": 2323,
      "rollersk": 2324,
      "teenagers": 2325,
      "magaz": 2326,
      "##wh": 2327,
      "blouse": 2328,
      "sewing": 2329,
      "scr": 2330,
      "help": 2331,
      "bandan": 2332,
      "drives": 2333,
      "##place": 2334,
      "landscape": 2335,
      "shaving": 2336,
      "presentation": 2337,
      "cheerleaders": 2338,
      "mural": 2339,
      "pian": 2340,
      "only": 2341,
      "##ster": 2342,
      "seems": 2343,
      "spot": 2344,
      "hooded": 2345,
      "nap": 2346,
      "navy": 2347,
      "##ues": 2348,
      "##ited": 2349,
      "##vement": 2350,
      "harness": 2351,
      "stuffed": 2352,
      "fab": 2353,
      "mix": 2354,
      "oly": 2355,
      "pet": 2356,
      "pipe": 2357,
      "##ls": 2358,
      "stool": 2359,
      "##icem": 2360,
      "doll": 2361,
      "flies": 2362,
      "##icket": 2363,
      "brus": 2364,
      "motorb": 2365,
      "##ustic": 2366,
      "covering": 2367,
      "olymp": 2368,
      "cro": 2369,
      "mop": 2370,
      "mess": 2371,
      "##cut": 2372,
      "paved": 2373,
      "teamm": 2374,
      "surface": 2375,
      "touching": 2376,
      "tunnel": 2377,
      "tongue": 2378,
      "fabric": 2379,
      "gate": 2380,
      "supp": 2381,
      "ship": 2382,
      "hose": 2383,
      "pavement": 2384,
      "oppos": 2385,
      "hiker": 2386,
      "waterfall": 2387,
      "demon": 2388,
      "york": 2389,
      "beam": 2390,
      "##vered": 2391,
      "adj": 2392,
      "knee": 2393,
      "policem": 2394,
      "pulls": 2395,
      "checkered": 2396,
      "boun": 2397,
      "sim": 2398,
      "##ights": 2399,
      "##inning": 2400,
      "bill": 2401,
      "mod": 2402,
      "slope": 2403,
      "birds": 2404,
      "banner": 2405,
      "enjoys": 2406,
      "robe": 2407,
      "hammer": 2408,
      "bandanna": 2409,
      "piano": 2410,
      "cer": 2411,
      "tri": 2412,
      "##itor": 2413,
      "##aped": 2414,
      "overalls": 2415,
      "paints": 2416,
      "passen": 2417,
      "rolling": 2418,
      "pitcher": 2419,
      "garbage": 2420,
      "image": 2421,
      "mustach": 2422,
      "scaffolding": 2423,
      "demonstr": 2424,
      "dust": 2425,
      "hay": 2426,
      "wag": 2427,
      "##ife": 2428,
      "##cy": 2429,
      "cobb": 2430,
      "sport": 2431,
      "plane": 2432,
      "climber": 2433,
      "##quet": 2434,
      "wheelchair": 2435,
      "protective": 2436,
      "saxophone": 2437,
      "position": 2438,
      "referee": 2439,
      "lon": 2440,
      "papers": 2441,
      "##iers": 2442,
      "##ucks": 2443,
      "bou": 2444,
      "##ilt": 2445,
      "trump": 2446,
      "camp": 2447,
      "exerc": 2448,
      "polo": 2449,
      "##artment": 2450,
      "shoveling": 2451,
      "floating": 2452,
      "embr": 2453,
      "bmx": 2454,
      "gaz": 2455,
      "##yh": 2456,
      "##bile": 2457,
      "##jam": 2458,
      "pajam": 2459,
      "smoke": 2460,
      "opposite": 2461,
      "cone": 2462,
      "darks": 2463,
      "fast": 2464,
      "pony": 2465,
      "##ipping": 2466,
      "poles": 2467,
      "sheet": 2468,
      "desc": 2469,
      "feed": 2470,
      "kiss": 2471,
      "goalie": 2472,
      "raised": 2473,
      "puts": 2474,
      "examining": 2475,
      "customers": 2476,
      "shooting": 2477,
      "darkskinned": 2478,
      "esc": 2479,
      "farm": 2480,
      "lunch": 2481,
      "pig": 2482,
      "##ention": 2483,
      "##ently": 2484,
      "arch": 2485,
      "dancer": 2486,
      "oppon": 2487,
      "fir": 2488,
      "##dium": 2489,
      "##lest": 2490,
      "toss": 2491,
      "beg": 2492,
      "tractor": 2493,
      "moves": 2494,
      "rece": 2495,
      "foreign": 2496,
      "design": 2497,
      "neckl": 2498,
      "##ection": 2499,
      "##gy": 2500,
      "redhead": 2501,
      "podium": 2502,
      "riders": 2503,
      "##anta": 2504,
      "grand": 2505,
      "grind": 2506,
      "button": 2507,
      "container": 2508,
      "youth": 2509,
      "floral": 2510,
      "jap": 2511,
      "pin": 2512,
      "##pt": 2513,
      "arena": 2514,
      "chop": 2515,
      "club": 2516,
      "bending": 2517,
      "ribb": 2518,
      "crew": 2519,
      "staircase": 2520,
      "apple": 2521,
      "bubble": 2522,
      "wrestling": 2523,
      "japan": 2524,
      "mer": 2525,
      "palm": 2526,
      "##dress": 2527,
      "##inery": 2528,
      "##ars": 2529,
      "##acher": 2530,
      "shaking": 2531,
      "chalk": 2532,
      "##oney": 2533,
      "walls": 2534,
      "hug": 2535,
      "conversing": 2536,
      "belt": 2537,
      "del": 2538,
      "hear": 2539,
      "map": 2540,
      "puddle": 2541,
      "##ither": 2542,
      "peace": 2543,
      "lies": 2544,
      "raft": 2545,
      "army": 2546,
      "hangs": 2547,
      "machinery": 2548,
      "underwater": 2549,
      "summer": 2550,
      "inflat": 2551,
      "wagon": 2552,
      "bent": 2553,
      "far": 2554,
      "fenc": 2555,
      "money": 2556,
      "##ring": 2557,
      "stack": 2558,
      "##ory": 2559,
      "bucking": 2560,
      "teacher": 2561,
      "haircut": 2562,
      "plan": 2563,
      "##akers": 2564,
      "drummer": 2565,
      "greyh": 2566,
      "barbecue": 2567,
      "inflatable": 2568,
      "greyhound": 2569,
      "cyclists": 2570,
      "either": 2571,
      "lugg": 2572,
      "##ield": 2573,
      "thrown": 2574,
      "jew": 2575,
      "aco": 2576,
      "cau": 2577,
      "push": 2578,
      "patter": 2579,
      "funny": 2580,
      "mustache": 2581,
      "longh": 2582,
      "luggage": 2583,
      "##house": 2584,
      "##ooks": 2585,
      "##uses": 2586,
      "guitarist": 2587,
      "shoe": 2588,
      "amus": 2589,
      "soldier": 2590,
      "athletic": 2591,
      "longsleeved": 2592,
      "trumpet": 2593,
      "acoustic": 2594,
      "power": 2595,
      "sup": 2596,
      "santa": 2597,
      "##mers": 2598,
      "##rack": 2599,
      "##bow": 2600,
      "##ites": 2601,
      "##rop": 2602,
      "without": 2603,
      "swor": 2604,
      "themsel": 2605,
      "bars": 2606,
      "def": 2607,
      "polk": 2608,
      "pract": 2609,
      "boxes": 2610,
      "jerseys": 2611,
      "closeup": 2612,
      "relax": 2613,
      "cloudy": 2614,
      "stares": 2615,
      "themselves": 2616,
      "easter": 2617,
      "foc": 2618,
      "char": 2619,
      "rout": 2620,
      "biking": 2621,
      "towel": 2622,
      "caught": 2623,
      "formal": 2624,
      "tube": 2625,
      "juggling": 2626,
      "##hawk": 2627,
      "caucas": 2628,
      "surrounding": 2629,
      "ears": 2630,
      "goods": 2631,
      "pajamas": 2632,
      "caucasian": 2633,
      "dep": 2634,
      "thum": 2635,
      "##ret": 2636,
      "shade": 2637,
      "handstand": 2638,
      "bottles": 2639,
      "carpet": 2640,
      "escal": 2641,
      "practice": 2642,
      "cab": 2643,
      "hers": 2644,
      "rem": 2645,
      "sale": 2646,
      "##town": 2647,
      "##aired": 2648,
      "##raying": 2649,
      "brownhaired": 2650,
      "backpacks": 2651,
      "tattoos": 2652,
      "reaches": 2653,
      "animals": 2654,
      "fresh": 2655,
      "cool": 2656,
      "care": 2657,
      "lamp": 2658,
      "pige": 2659,
      "porch": 2660,
      "##day": 2661,
      "##jects": 2662,
      "inv": 2663,
      "##very": 2664,
      "neon": 2665,
      "##ockey": 2666,
      "mohawk": 2667,
      "plant": 2668,
      "caps": 2669,
      "serving": 2670,
      "chases": 2671,
      "fingers": 2672,
      "puppy": 2673,
      "finish": 2674,
      "cobblest": 2675,
      "longhaired": 2676,
      "el": 2677,
      "##eum": 2678,
      "##land": 2679,
      "##dog": 2680,
      "##per": 2681,
      "##front": 2682,
      "shown": 2683,
      "backwards": 2684,
      "performers": 2685,
      "##ations": 2686,
      "##ends": 2687,
      "driver": 2688,
      "##covered": 2689,
      "member": 2690,
      "racet": 2691,
      "observing": 2692,
      "sprink": 2693,
      "##time": 2694,
      "##chest": 2695,
      "hosp": 2696,
      "redhaired": 2697,
      "downtown": 2698,
      "cones": 2699,
      "headband": 2700,
      "liqu": 2701,
      "museum": 2702,
      "sheep": 2703,
      "drive": 2704,
      "pieces": 2705,
      "bread": 2706,
      "individual": 2707,
      "native": 2708,
      "paddling": 2709,
      "motorbike": 2710,
      "racetrack": 2711,
      "hospital": 2712,
      "broom": 2713,
      "jockey": 2714,
      "lane": 2715,
      "piz": 2716,
      "tight": 2717,
      "use": 2718,
      "vac": 2719,
      "war": 2720,
      "you": 2721,
      "thin": 2722,
      "##tered": 2723,
      "appl": 2724,
      "raising": 2725,
      "participating": 2726,
      "visible": 2727,
      "frame": 2728,
      "welding": 2729,
      "softball": 2730,
      "let": 2731,
      "pen": 2732,
      "rel": 2733,
      "##eter": 2734,
      "##rie": 2735,
      "tops": 2736,
      "benches": 2737,
      "##aker": 2738,
      "marketplace": 2739,
      "leaf": 2740,
      "tourists": 2741,
      "hikers": 2742,
      "celebrating": 2743,
      "tools": 2744,
      "advertisement": 2745,
      "hurdle": 2746,
      "excited": 2747,
      "meeting": 2748,
      "model": 2749,
      "mis": 2750,
      "puck": 2751,
      "sal": 2752,
      "tar": 2753,
      "weather": 2754,
      "##rol": 2755,
      "steep": 2756,
      "cho": 2757,
      "##rier": 2758,
      "##boat": 2759,
      "fix": 2760,
      "fly": 2761,
      "flight": 2762,
      "tray": 2763,
      "maroon": 2764,
      "motorcyclist": 2765,
      "fisher": 2766,
      "paddle": 2767,
      "kneels": 2768,
      "shadow": 2769,
      "athlete": 2770,
      "style": 2771,
      "beverage": 2772,
      "routine": 2773,
      "herself": 2774,
      "gas": 2775,
      "narrow": 2776,
      "pit": 2777,
      "##hill": 2778,
      "##tr": 2779,
      "##vis": 2780,
      "##be": 2781,
      "##ky": 2782,
      "stri": 2783,
      "##ersection": 2784,
      "chick": 2785,
      "order": 2786,
      "scub": 2787,
      "airport": 2788,
      "comm": 2789,
      "boxing": 2790,
      "intersection": 2791,
      "teenager": 2792,
      "retrie": 2793,
      "bin": 2794,
      "mound": 2795,
      "##bat": 2796,
      "##erby": 2797,
      "sticking": 2798,
      "backs": 2799,
      "socks": 2800,
      "squatting": 2801,
      "homeless": 2802,
      "poster": 2803,
      "robes": 2804,
      "sleeve": 2805,
      "japanese": 2806,
      "fenced": 2807,
      "scuba": 2808,
      "german": 2809,
      "pay": 2810,
      "wild": 2811,
      "tho": 2812,
      "things": 2813,
      "blur": 2814,
      "sne": 2815,
      "catcher": 2816,
      "laughs": 2817,
      "gentlemen": 2818,
      "college": 2819,
      "hallway": 2820,
      "donkey": 2821,
      "firefighters": 2822,
      "aut": 2823,
      "bun": 2824,
      "##cts": 2825,
      "fill": 2826,
      "heels": 2827,
      "print": 2828,
      "##uffy": 2829,
      "happily": 2830,
      "float": 2831,
      "soldiers": 2832,
      "transport": 2833,
      "carriage": 2834,
      "possib": 2835,
      "opponent": 2836,
      "first": 2837,
      "escalator": 2838,
      "cobblestone": 2839,
      "cree": 2840,
      "fac": 2841,
      "feat": 2842,
      "##ech": 2843,
      "##ges": 2844,
      "##pan": 2845,
      "blocks": 2846,
      "##ions": 2847,
      "orn": 2848,
      "tax": 2849,
      "parach": 2850,
      "swimmer": 2851,
      "load": 2852,
      "ponytail": 2853,
      "ahead": 2854,
      "main": 2855,
      "vil": 2856,
      "##suit": 2857,
      "try": 2858,
      "##ocross": 2859,
      "stripes": 2860,
      "baskets": 2861,
      "patient": 2862,
      "flowered": 2863,
      "indoors": 2864,
      "suspended": 2865,
      "redheaded": 2866,
      "amusement": 2867,
      "possibly": 2868,
      "naked": 2869,
      "tu": 2870,
      "##od": 2871,
      "##iny": 2872,
      "blow": 2873,
      "space": 2874,
      "airbor": 2875,
      "motocross": 2876,
      "amid": 2877,
      "cricket": 2878,
      "patio": 2879,
      "leading": 2880,
      "reflective": 2881,
      "necklace": 2882,
      "egg": 2883,
      "sol": 2884,
      "##hood": 2885,
      "##ged": 2886,
      "##duct": 2887,
      "##ried": 2888,
      "neigh": 2889,
      "skin": 2890,
      "##rench": 2891,
      "bicyclists": 2892,
      "barber": 2893,
      "speech": 2894,
      "crosses": 2895,
      "drill": 2896,
      "##ashion": 2897,
      "grilling": 2898,
      "hotdog": 2899,
      "electron": 2900,
      "drag": 2901,
      "airborne": 2902,
      "bass": 2903,
      "punch": 2904,
      "sy": 2905,
      "##iss": 2906,
      "orchest": 2907,
      "helps": 2908,
      "sets": 2909,
      "prin": 2910,
      "snowboarding": 2911,
      "cheering": 2912,
      "magazine": 2913,
      "adjus": 2914,
      "focus": 2915,
      "pizza": 2916,
      "blows": 2917,
      "##ister": 2918,
      "gravel": 2919,
      "bul": 2920,
      "buying": 2921,
      "##ipes": 2922,
      "compan": 2923,
      "tshirts": 2924,
      "##tyard": 2925,
      "courtyard": 2926,
      "skirts": 2927,
      "garage": 2928,
      "racer": 2929,
      "mostly": 2930,
      "figure": 2931,
      "orchestra": 2932,
      "gall": 2933,
      "mall": 2934,
      "tug": 2935,
      "tied": 2936,
      "##hou": 2937,
      "##itten": 2938,
      "plaza": 2939,
      "outst": 2940,
      "##ilar": 2941,
      "rough": 2942,
      "##tery": 2943,
      "libr": 2944,
      "chee": 2945,
      "barrel": 2946,
      "objects": 2947,
      "firetr": 2948,
      "saw": 2949,
      "bikers": 2950,
      "sells": 2951,
      "student": 2952,
      "entr": 2953,
      "silhou": 2954,
      "##born": 2955,
      "candy": 2956,
      "repairing": 2957,
      "branch": 2958,
      "pigeons": 2959,
      "neighbor": 2960,
      "free": 2961,
      "gown": 2962,
      "id": 2963,
      "##view": 2964,
      "##lit": 2965,
      "##eds": 2966,
      "coach": 2967,
      "buy": 2968,
      "forward": 2969,
      "smaller": 2970,
      "ware": 2971,
      "fold": 2972,
      "attention": 2973,
      "newborn": 2974,
      "longsleeve": 2975,
      "rubber": 2976,
      "similar": 2977,
      "eastern": 2978,
      "choir": 2979,
      "sneakers": 2980,
      "eight": 2981,
      "pop": 2982,
      "##dles": 2983,
      "start": 2984,
      "carry": 2985,
      "##ured": 2986,
      "adm": 2987,
      "##athers": 2988,
      "balding": 2989,
      "corn": 2990,
      "compete": 2991,
      "rainbow": 2992,
      "vehicles": 2993,
      "action": 2994,
      "biting": 2995,
      "keep": 2996,
      "tv": 2997,
      "shep": 2998,
      "bell": 2999,
      "##ult": 3000,
      "##ocking": 3001,
      "folding": 3002,
      "rec": 3003,
      "sandw": 3004,
      "##loy": 3005,
      "boardwalk": 3006,
      "rests": 3007,
      "operating": 3008,
      "ribbon": 3009,
      "polka": 3010,
      "neighborhood": 3011,
      "fen": 3012,
      "pump": 3013,
      "rink": 3014,
      "trip": 3015,
      "##fa": 3016,
      "##cess": 3017,
      "item": 3018,
      "ballet": 3019,
      "turned": 3020,
      "##aved": 3021,
      "fruits": 3022,
      "note": 3023,
      "follow": 3024,
      "pillow": 3025,
      "stove": 3026,
      "brushing": 3027,
      "library": 3028,
      "entrance": 3029,
      "song": 3030,
      "instru": 3031,
      "##ident": 3032,
      "been": 3033,
      "carving": 3034,
      "seem": 3035,
      "cons": 3036,
      "spinning": 3037,
      "teal": 3038,
      "brush": 3039,
      "headsc": 3040,
      "lifting": 3041,
      "strange": 3042,
      "wheels": 3043,
      "crouches": 3044,
      "splashes": 3045,
      "castle": 3046,
      "creek": 3047,
      "dim": 3048,
      "emer": 3049,
      "##dan": 3050,
      "##of": 3051,
      "##ws": 3052,
      "sharing": 3053,
      "##oping": 3054,
      "##urity": 3055,
      "##ility": 3056,
      "skateboards": 3057,
      "job": 3058,
      "employ": 3059,
      "ange": 3060,
      "##orm": 3061,
      "share": 3062,
      "bean": 3063,
      "coc": 3064,
      "##rents": 3065,
      "balance": 3066,
      "eleph": 3067,
      "bank": 3068,
      "stretching": 3069,
      "tackle": 3070,
      "security": 3071,
      "policeman": 3072,
      "feeding": 3073,
      "outstret": 3074,
      "every": 3075,
      "jung": 3076,
      "mater": 3077,
      "tents": 3078,
      "##ho": 3079,
      "##ift": 3080,
      "##gan": 3081,
      "skates": 3082,
      "##emony": 3083,
      "spread": 3084,
      "surg": 3085,
      "evening": 3086,
      "hits": 3087,
      "computers": 3088,
      "muzz": 3089,
      "ceremony": 3090,
      "liquid": 3091,
      "transportation": 3092,
      "firetruck": 3093,
      "outstretched": 3094,
      "jungle": 3095,
      "dread": 3096,
      "patch": 3097,
      "##book": 3098,
      "##cial": 3099,
      "shaped": 3100,
      "##ided": 3101,
      "##rain": 3102,
      "trim": 3103,
      "tech": 3104,
      "social": 3105,
      "beneath": 3106,
      "crossed": 3107,
      "cups": 3108,
      "control": 3109,
      "raises": 3110,
      "ceiling": 3111,
      "flipfl": 3112,
      "great": 3113,
      "bathroom": 3114,
      "second": 3115,
      "jewel": 3116,
      "super": 3117,
      "sword": 3118,
      "material": 3119,
      "ax": 3120,
      "ber": 3121,
      "dump": 3122,
      "derby": 3123,
      "gam": 3124,
      "if": 3125,
      "wading": 3126,
      "##me": 3127,
      "##med": 3128,
      "##bag": 3129,
      "##aling": 3130,
      "##ature": 3131,
      "##isting": 3132,
      "##ica": 3133,
      "baller": 3134,
      "unicycle": 3135,
      "smokes": 3136,
      "photographs": 3137,
      "furn": 3138,
      "##ption": 3139,
      "deli": 3140,
      "sleeveless": 3141,
      "20": 3142,
      "cards": 3143,
      "ropes": 3144,
      "##ma": 3145,
      "##wor": 3146,
      "##ative": 3147,
      "##ilts": 3148,
      "##aches": 3149,
      "##ycling": 3150,
      "swimmers": 3151,
      "suitcase": 3152,
      "knife": 3153,
      "sofa": 3154,
      "crane": 3155,
      "breakdan": 3156,
      "intently": 3157,
      "engine": 3158,
      "pretty": 3159,
      "dune": 3160,
      "billboard": 3161,
      "taxi": 3162,
      "shepher": 3163,
      "aqu": 3164,
      "bund": 3165,
      "kite": 3166,
      "own": 3167,
      "sad": 3168,
      "##tub": 3169,
      "shoot": 3170,
      "##ict": 3171,
      "##here": 3172,
      "backd": 3173,
      "##cture": 3174,
      "watched": 3175,
      "waist": 3176,
      "bushes": 3177,
      "uniformed": 3178,
      "bagp": 3179,
      "single": 3180,
      "storefront": 3181,
      "firemen": 3182,
      "knees": 3183,
      "artwork": 3184,
      "studio": 3185,
      "##ecting": 3186,
      "sporting": 3187,
      "tattooed": 3188,
      "rollerblad": 3189,
      "eth": 3190,
      "factor": 3191,
      "wig": 3192,
      "##ually": 3193,
      "##aced": 3194,
      "stir": 3195,
      "##orting": 3196,
      "atv": 3197,
      "teaching": 3198,
      "microphones": 3199,
      "attempt": 3200,
      "shovels": 3201,
      "chains": 3202,
      "straight": 3203,
      "dishes": 3204,
      "confer": 3205,
      "passengers": 3206,
      "patterned": 3207,
      "thumbs": 3208,
      "invol": 3209,
      "ethnic": 3210,
      "hum": 3211,
      "jet": 3212,
      "lines": 3213,
      "##da": 3214,
      "##uum": 3215,
      "dot": 3216,
      "downhill": 3217,
      "skater": 3218,
      "snowcovered": 3219,
      "handing": 3220,
      "wake": 3221,
      "parents": 3222,
      "colla": 3223,
      "shortslee": 3224,
      "married": 3225,
      "displaying": 3226,
      "wea": 3227,
      "medical": 3228,
      "express": 3229,
      "traveling": 3230,
      "vacuum": 3231,
      "relig": 3232,
      "village": 3233,
      "sandwich": 3234,
      "factory": 3235,
      "dining": 3236,
      "sink": 3237,
      "##ef": 3238,
      "##ior": 3239,
      "##pers": 3240,
      "##ze": 3241,
      "##irth": 3242,
      "##american": 3243,
      "groups": 3244,
      "organ": 3245,
      "paras": 3246,
      "barrier": 3247,
      "horseback": 3248,
      "##eeled": 3249,
      "butter": 3250,
      "stopped": 3251,
      "falls": 3252,
      "crafts": 3253,
      "terrain": 3254,
      "fisherman": 3255,
      "chicken": 3256,
      "electronic": 3257,
      "shepherd": 3258,
      "bad": 3259,
      "birth": 3260,
      "huddle": 3261,
      "mini": 3262,
      "range": 3263,
      "##hib": 3264,
      "##ract": 3265,
      "##rope": 3266,
      "##uts": 3267,
      "chess": 3268,
      "##ads": 3269,
      "overhead": 3270,
      "snowsh": 3271,
      "apartment": 3272,
      "##ails": 3273,
      "formation": 3274,
      "amongst": 3275,
      "furry": 3276,
      "tourist": 3277,
      "crouching": 3278,
      "cardboard": 3279,
      "teammate": 3280,
      "exercise": 3281,
      "jewelry": 3282,
      "conference": 3283,
      "fashion": 3284,
      "lan": 3285,
      "min": 3286,
      "rowing": 3287,
      "##ced": 3288,
      "##ised": 3289,
      "doors": 3290,
      "##aps": 3291,
      "##ubs": 3292,
      "plates": 3293,
      "attending": 3294,
      "exhib": 3295,
      "training": 3296,
      "telephone": 3297,
      "fencing": 3298,
      "birthday": 3299,
      "gathers": 3300,
      "jog": 3301,
      "lear": 3302,
      "##vi": 3303,
      "##can": 3304,
      "##iture": 3305,
      "##umn": 3306,
      "carts": 3307,
      "tex": 3308,
      "mobile": 3309,
      "enc": 3310,
      "slight": 3311,
      "loading": 3312,
      "##izon": 3313,
      "photos": 3314,
      "africanamerican": 3315,
      "##brush": 3316,
      "stops": 3317,
      "contest": 3318,
      "candles": 3319,
      "discussion": 3320,
      "flipflops": 3321,
      "furniture": 3322,
      "backdrop": 3323,
      "ble": 3324,
      "dus": 3325,
      "fet": 3326,
      "hind": 3327,
      "iron": 3328,
      "nt": 3329,
      "yog": 3330,
      "##like": 3331,
      "##locks": 3332,
      "steel": 3333,
      "##uting": 3334,
      "cong": 3335,
      "live": 3336,
      "grayhaired": 3337,
      "tower": 3338,
      "shops": 3339,
      "dec": 3340,
      "leaving": 3341,
      "called": 3342,
      "clouds": 3343,
      "activ": 3344,
      "##vision": 3345,
      "religious": 3346,
      "brow": 3347,
      "races": 3348,
      "sides": 3349,
      "##tes": 3350,
      "##lish": 3351,
      "##ino": 3352,
      "shaved": 3353,
      "doctor": 3354,
      "##cted": 3355,
      "seats": 3356,
      "spoon": 3357,
      "scout": 3358,
      "reg": 3359,
      "parti": 3360,
      "checks": 3361,
      "hillside": 3362,
      "grad": 3363,
      "photographed": 3364,
      "##sely": 3365,
      "craft": 3366,
      "cuts": 3367,
      "quick": 3368,
      "kayaking": 3369,
      "calf": 3370,
      "casual": 3371,
      "protesting": 3372,
      "inspecting": 3373,
      "headscarf": 3374,
      "elephant": 3375,
      "imp": 3376,
      "pine": 3377,
      "rural": 3378,
      "vict": 3379,
      "##war": 3380,
      "##zen": 3381,
      "still": 3382,
      "##emb": 3383,
      "snack": 3384,
      "newly": 3385,
      "cello": 3386,
      "joy": 3387,
      "vari": 3388,
      "buckets": 3389,
      "##letes": 3390,
      "starting": 3391,
      "leads": 3392,
      "guns": 3393,
      "awa": 3394,
      "bouquet": 3395,
      "dimly": 3396,
      "dreadlocks": 3397,
      "yoga": 3398,
      "partially": 3399,
      "cooks": 3400,
      "fat": 3401,
      "ju": 3402,
      "upon": 3403,
      "fluffy": 3404,
      "handle": 3405,
      "tee": 3406,
      "come": 3407,
      "cleans": 3408,
      "competit": 3409,
      "vendors": 3410,
      "clapping": 3411,
      "athletes": 3412,
      "calm": 3413,
      "balances": 3414,
      "heart": 3415,
      "though": 3416,
      "wakeboard": 3417,
      "craw": 3418,
      "nur": 3419,
      "name": 3420,
      "rap": 3421,
      "##mat": 3422,
      "##iving": 3423,
      "##elling": 3424,
      "larger": 3425,
      "spraying": 3426,
      "tail": 3427,
      "attract": 3428,
      "converse": 3429,
      "clay": 3430,
      "gymnas": 3431,
      "olympics": 3432,
      "tugof": 3433,
      "rollerblades": 3434,
      "collared": 3435,
      "tugofwar": 3436,
      "crown": 3437,
      "dead": 3438,
      "duck": 3439,
      "had": 3440,
      "##min": 3441,
      "##yl": 3442,
      "##uzz": 3443,
      "##orn": 3444,
      "lean": 3445,
      "leot": 3446,
      "fol": 3447,
      "##olate": 3448,
      "slacks": 3449,
      "loom": 3450,
      "observe": 3451,
      "reflection": 3452,
      "puppies": 3453,
      "discussing": 3454,
      "television": 3455,
      "sprinkler": 3456,
      "gradu": 3457,
      "call": 3458,
      "case": 3459,
      "fell": 3460,
      "rear": 3461,
      "wings": 3462,
      "##ders": 3463,
      "##barrow": 3464,
      "##cc": 3465,
      "##wood": 3466,
      "##erry": 3467,
      "##ense": 3468,
      "##unk": 3469,
      "poor": 3470,
      "flute": 3471,
      "camping": 3472,
      "moder": 3473,
      "horizon": 3474,
      "purch": 3475,
      "placing": 3476,
      "chewing": 3477,
      "coloring": 3478,
      "batter": 3479,
      "wheelbarrow": 3480,
      "##coat": 3481,
      "pottery": 3482,
      "labor": 3483,
      "directions": 3484,
      "protesters": 3485,
      "fancy": 3486,
      "filling": 3487,
      "bulld": 3488,
      "snowshoes": 3489,
      "dusk": 3490,
      "more": 3491,
      "pins": 3492,
      "##mark": 3493,
      "##ai": 3494,
      "##nam": 3495,
      "##zer": 3496,
      "##ider": 3497,
      "##ount": 3498,
      "##urs": 3499,
      "covers": 3500,
      "##achers": 3501,
      "world": 3502,
      "flat": 3503,
      "spark": 3504,
      "cameram": 3505,
      "cameras": 3506,
      "recor": 3507,
      "horn": 3508,
      "winds": 3509,
      "soda": 3510,
      "##ively": 3511,
      "clad": 3512,
      "casually": 3513,
      "follows": 3514,
      "petting": 3515,
      "merch": 3516,
      "gallery": 3517,
      "cheek": 3518,
      "folded": 3519,
      "belly": 3520,
      "slightly": 3521,
      "variety": 3522,
      "aim": 3523,
      "cage": 3524,
      "fake": 3525,
      "pir": 3526,
      "rows": 3527,
      "sem": 3528,
      "tape": 3529,
      "torch": 3530,
      "ven": 3531,
      "##pr": 3532,
      "stall": 3533,
      "shar": 3534,
      "shel": 3535,
      "##ising": 3536,
      "##ically": 3537,
      "pee": 3538,
      "chase": 3539,
      "section": 3540,
      "flipping": 3541,
      "score": 3542,
      "bricks": 3543,
      "lighting": 3544,
      "##ivers": 3545,
      "##illy": 3546,
      "numer": 3547,
      "written": 3548,
      "kisses": 3549,
      "banan": 3550,
      "advertising": 3551,
      "gestures": 3552,
      "rollerskating": 3553,
      "grinding": 3554,
      "tux": 3555,
      "eu": 3556,
      "ow": 3557,
      "ump": 3558,
      "wash": 3559,
      "##pical": 3560,
      "##where": 3561,
      "##reg": 3562,
      "theater": 3563,
      "clut": 3564,
      "##ways": 3565,
      "acc": 3566,
      "haw": 3567,
      "canv": 3568,
      "strugg": 3569,
      "creating": 3570,
      "rainy": 3571,
      "masks": 3572,
      "scenic": 3573,
      "shoreline": 3574,
      "customer": 3575,
      "##tails": 3576,
      "moment": 3577,
      "portra": 3578,
      "##wheel": 3579,
      "hugs": 3580,
      "commun": 3581,
      "games": 3582,
      "dj": 3583,
      "kilt": 3584,
      "odd": 3585,
      "press": 3586,
      "##ters": 3587,
      "##ca": 3588,
      "##aming": 3589,
      "jumped": 3590,
      "bush": 3591,
      "ages": 3592,
      "##anges": 3593,
      "fireman": 3594,
      "toddlers": 3595,
      "turning": 3596,
      "##izing": 3597,
      "wheelie": 3598,
      "##weight": 3599,
      "viewing": 3600,
      "hotel": 3601,
      "notes": 3602,
      "shadows": 3603,
      "turns": 3604,
      "engaged": 3605,
      "exper": 3606,
      "paddles": 3607,
      "broken": 3608,
      "beanie": 3609,
      "juice": 3610,
      "modern": 3611,
      "umpire": 3612,
      "aer": 3613,
      "ais": 3614,
      "bron": 3615,
      "dro": 3616,
      "##val": 3617,
      "##gu": 3618,
      "##acting": 3619,
      "stones": 3620,
      "##oring": 3621,
      "chatting": 3622,
      "spar": 3623,
      "mass": 3624,
      "acro": 3625,
      "shoppers": 3626,
      "##ished": 3627,
      "march": 3628,
      "skiers": 3629,
      "##bbing": 3630,
      "nighttime": 3631,
      "trailer": 3632,
      "practices": 3633,
      "wrestle": 3634,
      "logo": 3635,
      "approaching": 3636,
      "olympic": 3637,
      "teammates": 3638,
      "missing": 3639,
      "ornate": 3640,
      "amidst": 3641,
      "skinny": 3642,
      "dom": 3643,
      "feather": 3644,
      "ge": 3645,
      "lond": 3646,
      "mill": 3647,
      "##ipp": 3648,
      "##yle": 3649,
      "##den": 3650,
      "inform": 3651,
      "##ately": 3652,
      "##iring": 3653,
      "##ishing": 3654,
      "chin": 3655,
      "##urf": 3656,
      "sep": 3657,
      "overweight": 3658,
      "tea": 3659,
      "mov": 3660,
      "lass": 3661,
      "jeep": 3662,
      "##ggy": 3663,
      "##gged": 3664,
      "attend": 3665,
      "couples": 3666,
      "brief": 3667,
      "opens": 3668,
      "point": 3669,
      "cute": 3670,
      "following": 3671,
      "##most": 3672,
      "rollerblading": 3673,
      "branches": 3674,
      "messy": 3675,
      "carefully": 3676,
      "numerous": 3677,
      "canvas": 3678,
      "london": 3679,
      "jack": 3680,
      "loun": 3681,
      "loung": 3682,
      "may": 3683,
      "sized": 3684,
      "##py": 3685,
      "##ker": 3686,
      "##colored": 3687,
      "##amer": 3688,
      "##illed": 3689,
      "##box": 3690,
      "tricycle": 3691,
      "almost": 3692,
      "##ooters": 3693,
      "bends": 3694,
      "dribb": 3695,
      "listens": 3696,
      "shakes": 3697,
      "monkey": 3698,
      "trunk": 3699,
      "laptops": 3700,
      "examines": 3701,
      "participate": 3702,
      "firefighter": 3703,
      "ident": 3704,
      "bleachers": 3705,
      "gymnasium": 3706,
      "aisle": 3707,
      "lounge": 3708,
      "av": 3709,
      "dad": 3710,
      "dive": 3711,
      "kim": 3712,
      "pil": 3713,
      "rack": 3714,
      "##mel": 3715,
      "##ives": 3716,
      "##ral": 3717,
      "##lled": 3718,
      "##rent": 3719,
      "within": 3720,
      "##chan": 3721,
      "##sticks": 3722,
      "houses": 3723,
      "##amb": 3724,
      "rolled": 3725,
      "word": 3726,
      "sniff": 3727,
      "conduct": 3728,
      "##ocular": 3729,
      "scre": 3730,
      "scooters": 3731,
      "comes": 3732,
      "forehead": 3733,
      "canad": 3734,
      "mechan": 3735,
      "numbers": 3736,
      "rooft": 3737,
      "aprons": 3738,
      "wrestler": 3739,
      "observes": 3740,
      "crouched": 3741,
      "gymnastics": 3742,
      "trashcan": 3743,
      "tiled": 3744,
      "moped": 3745,
      "support": 3746,
      "embracing": 3747,
      "applying": 3748,
      "target": 3749,
      "binocular": 3750,
      "silhouette": 3751,
      "quickly": 3752,
      "rapids": 3753,
      "venue": 3754,
      "licking": 3755,
      "tas": 3756,
      "tooth": 3757,
      "##ham": 3758,
      "##fire": 3759,
      "manne": 3760,
      "stom": 3761,
      "##imes": 3762,
      "lifts": 3763,
      "recl": 3764,
      "envi": 3765,
      "rif": 3766,
      "closely": 3767,
      "skill": 3768,
      "##ronment": 3769,
      "concent": 3770,
      "cru": 3771,
      "presents": 3772,
      "landing": 3773,
      "bowls": 3774,
      "racers": 3775,
      "groceries": 3776,
      "tropical": 3777,
      "nature": 3778,
      "suspenders": 3779,
      "brot": 3780,
      "parachute": 3781,
      "ballerina": 3782,
      "weaving": 3783,
      "sharp": 3784,
      "tuxed": 3785,
      "europe": 3786,
      "mannequ": 3787,
      "environment": 3788,
      "done": 3789,
      "rice": 3790,
      "##een": 3791,
      "##ments": 3792,
      "##lines": 3793,
      "##inet": 3794,
      "##ato": 3795,
      "##attered": 3796,
      "dough": 3797,
      "##rail": 3798,
      "hoops": 3799,
      "##oth": 3800,
      "grabbing": 3801,
      "seag": 3802,
      "lecture": 3803,
      "brit": 3804,
      "sunlight": 3805,
      "turban": 3806,
      "glove": 3807,
      "scenery": 3808,
      "saying": 3809,
      "sledding": 3810,
      "shades": 3811,
      "touch": 3812,
      "sweeps": 3813,
      "##coming": 3814,
      "descent": 3815,
      "pigtails": 3816,
      "tossing": 3817,
      "remo": 3818,
      "adjusting": 3819,
      "notebook": 3820,
      "201": 3821,
      "chainsaw": 3822,
      "congreg": 3823,
      "bulldo": 3824,
      "seagull": 3825,
      "fle": 3826,
      "hus": 3827,
      "pood": 3828,
      "sla": 3829,
      "tom": 3830,
      "wand": 3831,
      "##vil": 3832,
      "##po": 3833,
      "stilts": 3834,
      "blaz": 3835,
      "##ices": 3836,
      "##ution": 3837,
      "choc": 3838,
      "mail": 3839,
      "placed": 3840,
      "motion": 3841,
      "##quo": 3842,
      "amer": 3843,
      "pathway": 3844,
      "mex": 3845,
      "elev": 3846,
      "pads": 3847,
      "displays": 3848,
      "drawn": 3849,
      "decorative": 3850,
      "located": 3851,
      "##atory": 3852,
      "examine": 3853,
      "celebration": 3854,
      "assemb": 3855,
      "spotted": 3856,
      "dusty": 3857,
      "chalkboard": 3858,
      "eggs": 3859,
      "company": 3860,
      "portrait": 3861,
      "rooftop": 3862,
      "concentr": 3863,
      "cash": 3864,
      "fit": 3865,
      "fed": 3866,
      "hy": 3867,
      "hut": 3868,
      "overs": 3869,
      "rally": 3870,
      "silly": 3871,
      "val": 3872,
      "wel": 3873,
      "##girl": 3874,
      "##lley": 3875,
      "##ities": 3876,
      "##arter": 3877,
      "##eng": 3878,
      "stump": 3879,
      "peers": 3880,
      "doub": 3881,
      "##rial": 3882,
      "words": 3883,
      "pock": 3884,
      "##ctors": 3885,
      "handrail": 3886,
      "scient": 3887,
      "pale": 3888,
      "musc": 3889,
      "stripe": 3890,
      "motorized": 3891,
      "##ustrial": 3892,
      "colorfully": 3893,
      "expl": 3894,
      "##anging": 3895
    }
  }
}